/**
  ******************************************************************************
  * @file    network_data_params.c
  * @author  AST Embedded Analytics Research Platform
  * @date    Thu Sep 29 23:08:15 2022
  * @brief   AI Tool Automatic Code Generator for Embedded NN computing
  ******************************************************************************
  * Copyright (c) 2022 STMicroelectronics.
  * All rights reserved.
  *
  * This software is licensed under terms that can be found in the LICENSE file
  * in the root directory of this software component.
  * If no LICENSE file comes with this software, it is provided AS-IS.
  ******************************************************************************
  */

#include "network_data_params.h"


/**  Activations Section  ****************************************************/
ai_handle g_network_activations_table[1 + 2] = {
  AI_HANDLE_PTR(AI_MAGIC_MARKER),
  AI_HANDLE_PTR(NULL),
  AI_HANDLE_PTR(AI_MAGIC_MARKER),
};




/**  Weights Section  ********************************************************/
AI_ALIGNED(32)
const ai_u64 s_network_weights_array_u64[861] = {
  0x3ffe1d89c02e5357U, 0x3ff304be3fe0c49aU, 0x3e13e6c7403ce04dU, 0x3f5e7f07404c678eU,
  0xbfa441263fc82b87U, 0x3fa3af78c0dcd178U, 0xbf8b3b7ac048d576U, 0xc02d3dafbfe726d7U,
  0x405a0bca403f0a3aU, 0x3d2c7f12be1b5cc1U, 0x3e5675883ccad760U, 0x3eb27c783eea9556U,
  0x3e8882f0ba9beac7U, 0x3f3aebc33f826ec6U, 0xbe8088cebe4e904aU, 0x3e3b206bbe484033U,
  0xbf5da7703e0fbf7eU, 0xbf92bb7fbfc7c655U, 0x3d2212ca3c40aae6U, 0x3f4b3a473efd70ebU,
  0xbf6d61353f308397U, 0xbf601614bf308a3dU, 0xbd66b12d3d9ed812U, 0xbf4e0415bf63d692U,
  0xbf403f1bbf35e9baU, 0x3f1f4da73e3c91d6U, 0xbeb67f383efa8ef3U, 0xbf3586163f0e3581U,
  0x3f92a691c01cb860U, 0x3fddfbc53e8274dbU, 0x3f06cb243eec4f9aU, 0x3e8639a8c029c3e7U,
  0x3f00bdde3f8470d6U, 0x3f51294cbdeb6d38U, 0xbfd3b6e9be1728d6U, 0xbe7d98b4bf8c15afU,
  0xbfe9e34a3f491330U, 0x3fbe6f0dbed8ede5U, 0x3f84f8a93fcf6ffcU, 0xbf4917eebf445068U,
  0x3eb4d439bfd652b8U, 0xbf5e7ec2be3a7683U, 0xc00d2125bf28cf9aU, 0x406efae6bfe9b2ddU,
  0xc006092b4083b276U, 0xc00bf58cbfa80d03U, 0x3f40e6d0c0595121U, 0xbfd88997beb97fb9U,
  0x3df60915bf88aaaaU, 0xbe172d923ed2c7acU, 0x3e48b5b2c0056a3aU, 0xbe5d51813f17644aU,
  0xbf890160c03a2791U, 0x3d1ecfadbf89b7f8U, 0x3f9f5b173e68d293U, 0xbf99f0273fe10451U,
  0x4035e4d4401b7961U, 0xc005e225401c2910U, 0x3f1e06ebc00a4cb3U, 0x3f53b3c4be88ab94U,
  0xbf399d873f8c360fU, 0x3f5b1d5c3fe0449fU, 0x3f5c2b183ead43c5U, 0xbf9269773e836348U,
  0xbf249d18be8606baU, 0xc065e3c9c0159906U, 0x3ff83f6cc01333cfU, 0x402cd478c007c015U,
  0x3f345a1c3f3c1f5eU, 0x3f460e6fbf066083U, 0xbf49dd1ebf8c285eU, 0xbfd76ccbbfa1504bU,
  0x4015c77abf5cddbcU, 0x3f3cf6e9c011e241U, 0x3e44460440043a2dU, 0xbf349c6cc00b5f09U,
  0xc010a7aabf5da762U, 0xc01d01d440507807U, 0x400414e73fdaaeb7U, 0x3ff704aec025e27dU,
  0x3f8c035abfb6c1feU, 0x3ed986d93f72f349U, 0xbf1530963f81d9beU, 0xbeb2a0ea3fa62bdaU,
  0x3f4ac0b13f8d5124U, 0x3f0d096d3f3dcf60U, 0x3ef8a2023f2dc77fU, 0x3f0e40793f45f62fU,
  0x3f4ba1a13f2dbd20U, 0x400808fabfd2d385U, 0xbf6d4940bfa2d7c5U, 0xbf9d3d89bfa8241fU,
  0x408676c1bf5bfb26U, 0x409de255bf3ac1d0U, 0xbea6e248be7c96f2U, 0xc089e51540665e46U,
  0xbfbb114d4038efc3U, 0xbf01c712bf769becU, 0xbe6989ecbef8d43eU, 0xbdc4ca8b3fc3a3caU,
  0x40923d4e3fa2db41U, 0x409fede040cb1642U, 0x40adc6124083e762U, 0x40e51d654062a52fU,
  0x3f28191840c44a01U, 0x3f946b30bee1f4d2U, 0xbf9652a73f9c0fc3U, 0x3f5531663f95aec4U,
  0xbf3e2e473f2290cdU, 0xbfdaf180bf87babbU, 0xbf4ca2acbf2bbe24U, 0xbf98f04fbfe24672U,
  0x3f87d249be876521U, 0xbe28da80bf3c4925U, 0xbf2d90863fcfac18U, 0xbe3161903f3d827dU,
  0xbf785aadbebd7a5cU, 0xbf772731bf161b67U, 0xbd61523ebf739633U, 0xbf33e0b23f94eaabU,
  0x3fb9ea21bf73dc44U, 0xbf403c66bfb56702U, 0xbf539af3bf4488b6U, 0x3f8b1b9dbec86400U,
  0xbe1317f53f6ef962U, 0x3deb3db63d8d9191U, 0xbe1af9d83de44771U, 0xbdfdf9a6bd7d4baaU,
  0xbdd4102a3c44c383U, 0xbe2cdaf53e0942e7U, 0xbe1208a1be5f386cU, 0xbd9ff231be704c4eU,
  0x3da96221bc11a0acU, 0xbdff5656bc24d0f0U, 0xbd3775fc3d7988f1U, 0xbb827000bd24d190U,
  0x3aba0952bd4b9feaU, 0xbe60cfa2bdefd4e5U, 0x3cf94705bc921d9fU, 0xbd921539be1b727aU,
  0xbe1bbda8be566f7eU, 0xbd312181bdb19d51U, 0xbd2c5deabe222a6cU, 0x3ccb8be43ca78059U,
  0xbca575b5be5c1396U, 0xbe0d5a7bbe100e4fU, 0xbe4b5dedbd476346U, 0xbe2b0459be31506eU,
  0x3d03baa2bdbb8601U, 0x3cf95d083dd3c164U, 0x3d605174bb9289eaU, 0xbcac5e1ebdb994f3U,
  0xbe4a9c4dbe274fe6U, 0xbd8e45ef3de38b1fU, 0x3dbb95b5bdd0b577U, 0xbe13df56bd14cc7cU,
  0x3da0b320bdc4d359U, 0x3d1bfbbebc862ba5U, 0x3d4aab21be099173U, 0xbe59f61cbe6aa93fU,
  0xbc382a8dbd818d60U, 0xbe3bb7673d772104U, 0xbcfa60febcba8060U, 0x3da289e8bdeee03cU,
  0xbe33c5b6be0b3191U, 0xbe01ce20be21a1e1U, 0x3d4074a4be5033e7U, 0x3d9660ffbddfca82U,
  0xbda9805ebd653d08U, 0xbd625ff43dba854aU, 0xbd6228c43dc13bd1U, 0xbda94d82be48ed80U,
  0x3d1cb2c33c034b43U, 0x3dd6a46c3d025eacU, 0xbd1981793c82d1afU, 0x3b744c9a3dd7fab0U,
  0xbe14c1e43d1d7cffU, 0xbcd471b9bdae1617U, 0xbe12e6b2ba863bcdU, 0xbe15f66bbe66286cU,
  0xbdf8a73ebd5995e6U, 0x3cbbcf54be066569U, 0xbe046b0c3d9fe785U, 0x3e12cd10be632506U,
  0xbe4f9ddc3d8bf1feU, 0x3e0f44d0bcf6863cU, 0x3e3a1f8fbe10fd44U, 0xbe571addbe0ef213U,
  0xbdb366ffbe1bdadcU, 0xbd137fb03cb6ce06U, 0xbe4c8d563d75975dU, 0x3dcba581bc26cda4U,
  0xbd4c36bf3d9d863dU, 0x3e16f667bde5b2e7U, 0xbd85b71b3c8fae15U, 0xbe1d55d63e0f41b1U,
  0x3e14f0ff3dd629f3U, 0x3dbdca663df176eaU, 0x3e1cf3413cd01b73U, 0x3b3912773d4bf824U,
  0x3c942fe23e14abe8U, 0xbd734fe23d4697e4U, 0x3de65a70be4f2ab5U, 0x3cd562c6bde9189fU,
  0xbd4d50343e7a03edU, 0x3e28309b3d998268U, 0xbcd7d2623e22021fU, 0x3df11504bcdeca3fU,
  0xbd06573f3d316eabU, 0x3d808da13e496b05U, 0xbd0b9daf3dc733a1U, 0x3e94915b3dc13223U,
  0x3d2076b23e64cb41U, 0xbd9873353d727c40U, 0xbcf1065c3dd91000U, 0x3d3efbb43db843d6U,
  0x3df49e8c3d825038U, 0x3e5972803e485d50U, 0xbd9590c53d0cb56dU, 0x3db351383d30a501U,
  0xbd734f273b8c2791U, 0x3dbef2693dc6960eU, 0xbcf494b4bd1b6ab8U, 0x3dc63b73bdb61111U,
  0x3de8ce303ddc1bc5U, 0xbd7abf4a3e20f0e8U, 0xbcac9293bdd361fbU, 0x3e02ff22bd38f494U,
  0x3e3af78c3e080521U, 0xbcc69cbd3d097018U, 0x3cedc1e63e2e574dU, 0xbdb833e1bc910bc3U,
  0x3c5f83b9bdaf4adbU, 0xbc73d2e33db755f8U, 0xbca3dca83d19b3c0U, 0x3e462a443d01eec9U,
  0x3cf7a72f3d5e6e17U, 0x3bcde3333e194a87U, 0x3db670023dc68013U, 0x3d0665e1bd8e84f1U,
  0xbe0631263e80ca5aU, 0x3da281c13e66e681U, 0x3db2fa223e22b0ceU, 0xbd9bbfe7bd86d887U,
  0x3e110b76be1071e8U, 0x3df11e6d3e3ea5ffU, 0x3e0e6c9ebe7ac47bU, 0x3ea69838be366ebbU,
  0x3dd04c793e2f3092U, 0x3d1e79453d531e91U, 0x3e49c8cabe25c69eU, 0x3d80acb13c900407U,
  0x3d5d61273de7b481U, 0x3def46833da559a8U, 0xbd9db0e43dd9a831U, 0xbd0ac5163def3762U,
  0x3dd65b573d893633U, 0xbdce9a273e44b175U, 0x3c679b323d42df78U, 0x3e34c8843d3238f4U,
  0xbd9c84493d1353eeU, 0xbd9e711fbe3667faU, 0xbd2017913bfb65fcU, 0x3e42d0523dd35166U,
  0x3e6fe5a23d55dd25U, 0x3e916404bcfe943cU, 0x3d2345a83e89ff00U, 0x3dca5620bcb2c301U,
  0x35fcd3103d332d80U, 0x3c8f62a13c99d054U, 0xbe08580f3dc2c7a9U, 0xbd44e23b3c8879abU,
  0x3dc742cabd9ab95eU, 0x3e3acace3e177dbeU, 0x3dbead843e0cd4d4U, 0x3dd0adaabc2a4255U,
  0xbd9723bbbd2787a2U, 0x3db0d2b6be460e61U, 0xbdc80261bdcc892cU, 0x3c7adc01bd4903a7U,
  0x3e14075b3d9706fdU, 0x3e5346cb3d185aefU, 0xbdab2edb3e8e8f39U, 0xbe7af7dd3e6f9747U,
  0xbd4f827bbbfc1bd3U, 0x3dfdabf13d6e480eU, 0x3de2ead63e4d49e3U, 0x3ca9d4443d01114eU,
  0x3e2826f3bdf76245U, 0xbd703132be248bd5U, 0x3d625d9b3d1485b8U, 0x3e718201bd50e06eU,
  0x3dec04733e3a9a84U, 0xbcdfe4c7bdc9daedU, 0x3de541353d2f611eU, 0xbe125ce03e0a7302U,
  0x3dbbe9673d3d64a9U, 0x3e247af23d3dfb6dU, 0xbcac062c3dc3f177U, 0x3ca44c31bd1bdb02U,
  0x3e55a1303dbe9afcU, 0x3d00bd653be01af6U, 0x3db2f33bbc8568b5U, 0x3e390951bdb6fdadU,
  0x3e37c7d43db69be4U, 0x3c947f73be146b2dU, 0x3cdf6fb03e72e571U, 0xbdc0de783e1dd330U,
  0xbd025a2a3d0b15f9U, 0x3e4c3befbd486296U, 0xbd3b09e53e611452U, 0xbb8f4cc83db7a612U,
  0x3e22dad53d16c600U, 0xbe1405f53d72bd52U, 0x3d62a537be0a5b60U, 0x3e4689a2be0c0501U,
  0x3dc2748f3d92a94cU, 0xbd780f4bbd46f894U, 0x3deec41e3d17f13bU, 0xbdae822fba74d50aU,
  0xbcd4b685bc2f3c61U, 0x3e65d973bc211e4aU, 0xbcb1446b3d848a1cU, 0xbd88de093db8ef20U,
  0x3dba9e9cbdd6b512U, 0xbe0018903dbf2284U, 0xbcb5cda3bda57357U, 0x3e1903a53d1fa318U,
  0x3d9126a33e4ea049U, 0xbda495d3bd203ce8U, 0xbe93491c3ddb2a18U, 0xbc6f7873be339e8cU,
  0xbda7baadbda92b64U, 0x3e49bf8abe078dc9U, 0x3d63fa053d152f0fU, 0x3c3a2e443e30dab1U,
  0xbe911d943e240183U, 0xbe27eaa2bd9ad762U, 0x3d467a0fbe685993U, 0xbda856653d8bcb3aU,
  0xbd196954bc82423bU, 0x3da430383d576087U, 0x3cb4dea6bd6b19bbU, 0x3d3c55db3beb425dU,
  0x3d0cd0f03e4e1063U, 0xbe04cf833dbbbd49U, 0x3e366eadbd32d3edU, 0x3c0611d1bda9f3a2U,
  0xbe2cf9543e620d00U, 0xbe1f4653bdd8ad48U, 0xbe712fbd3e1a120dU, 0xbcd559a2be27d8fbU,
  0xbe24057a3dcb3af9U, 0xbdbd89833e43c8fdU, 0x3cffcc85be09ed20U, 0x3d0292823be57441U,
  0xbc2c801cbca44425U, 0x3d3253b43db55f38U, 0x3e52af173d983b9bU, 0x3db42d72bd8e7018U,
  0xbd3556753e0a6286U, 0x3dfbf344bc824abaU, 0xbd272a66bd60836bU, 0xbda414b4bd9aed60U,
  0xbdebea6dbe837162U, 0xbe18201a3e761656U, 0x3c87eda9be165988U, 0x3e80a0fd3dfa91cfU,
  0x3c5490db3e39f661U, 0x3d525f1d3db38e23U, 0x3e27e838bc688827U, 0x3e05a387bd5b20e4U,
  0xbe2a1ddc398cb243U, 0xbde8a1033e2507bfU, 0xbe520e5f3e84c4bdU, 0xbda35aa6bdf22be2U,
  0xbdd60ab2bd918901U, 0xbd0e75553e10862bU, 0xbd9c64bd3d90461fU, 0xbcaf50813d3c87fbU,
  0x3e2f4444bd8d01dbU, 0xbb5ecfc13dc27263U, 0xbdee989e3c4d40beU, 0x3e5033e33d05a61cU,
  0x3d6482333ca3a045U, 0x3e3cdc763e82e482U, 0xbd8bc4553e14ad16U, 0xbe41c2efbe077df4U,
  0xbe9b2d8bbdea87cdU, 0x3dca82b83c8c8a7eU, 0x3dde4662bcc2d101U, 0x3e2054953d86a300U,
  0xbd8a09443ca7f93fU, 0x3cf635e6bc0c8537U, 0x3d93655cbd96b322U, 0x3dde9a4cbe8530aaU,
  0x3d8542c63ba1ed03U, 0xbd5a25c53dad818cU, 0xbd407c2a3e13fda0U, 0xbddf6bb1bdb4f432U,
  0x3d2cbdd9be45f844U, 0x3d6d85393d5dfa4fU, 0x3e6bf6e83e097345U, 0xbe050267be138363U,
  0x3e010e2a3d4b279fU, 0x3d14a60bbe16c8a6U, 0x3dc9016ebdcc252fU, 0xbd5b17f7bdbf084cU,
  0x3ea079d0bc98e521U, 0x3d05554abb3449f1U, 0xbe5f8d94bd972123U, 0x3d76ffbcbd538208U,
  0xbd3bbfb7bd9db432U, 0x3d2828213e658f25U, 0xbd2420a63d1c7c38U, 0x3db867123d9cb2bfU,
  0xbb1439e0bd76bfd0U, 0xbdff67333d94d16aU, 0x3e0e3de3bd5f478eU, 0x3e64b7a0bd542442U,
  0x3df7bd7abc6966e7U, 0x3d06e76a3dc92947U, 0xbe26da9d3cc17997U, 0x3c7ed562be4b41aeU,
  0xbe34bc99bd1b2cacU, 0xbc53549a3e73b141U, 0x3dded5203d77fd77U, 0x3c8389323c866f7eU,
  0x3c4d36503d56e541U, 0xbda927663d8af834U, 0x3e78eb14bdc05802U, 0xbb759787be3e5eaaU,
  0xbde584653d80617dU, 0xbdf94bc83e2dd8c7U, 0xbe54b25b3e032223U, 0xbe2637dfbde10123U,
  0xbe6c9ce7bd5e45c9U, 0x3d40bf233e1c3c9eU, 0x3e4be8fa3d1f13a5U, 0x3e293bd83d65668dU,
  0x3d2584103de4d802U, 0xbd8d02553d1623a8U, 0x3dd293693ad7d105U, 0x3d25fb6ebe81615fU,
  0xbdec4bf33e88ec81U, 0x3e2e74b53e04497bU, 0xbe0b2e7cbdbda775U, 0x3d407b7abca7dcd6U,
  0xbda73d93bd9fdfc9U, 0x3e0011473e32133aU, 0x3ddfb157bca61a5fU, 0x3d390f353e0ab350U,
  0x3ba4fd7d3db886c8U, 0xbd91c6edbce4a8a5U, 0x3d792fafbdd8bbcbU, 0xbd36b954be7a193bU,
  0xbd35c5d73d704458U, 0x3d85c7af3d4c66b3U, 0xbe17091e3cd564fbU, 0x3cf04b49bdb4bf36U,
  0xbe3a1ad3bd11bd31U, 0x3cceddbb3e258df8U, 0xbd0d113a3cc8944cU, 0x3d95cc1d3dddcc75U,
  0x3dda17dc3da2ad9bU, 0xbd2670f13dd6cd0fU, 0x3d9884dcbce2c22fU, 0x3b1dda34be63c68aU,
  0xbe48c62b3e25bea2U, 0xbc44e5be3e37553cU, 0xbddc622e3d659d09U, 0x3d5caf2abddcbee5U,
  0xbd1091b7bcb1e57bU, 0x3e32609ebc5227bfU, 0x3e6654fcbc96b2c9U, 0xbd2919f4bde3a69bU,
  0x3d8a849abd6b6768U, 0xbe337a9e3d4fed1eU, 0xbe6772b23dc7c615U, 0x3c9879323ceeb6d6U,
  0x3e28a911bd73ae67U, 0xbd356840be615427U, 0xbd67cb1c3e19ba72U, 0xbcd65d4bbdd25f13U,
  0xbd7c732e3ca7e281U, 0xbe91c530be3423c3U, 0xbe15f7e43e8babefU, 0xbe0f599f3ea75218U,
  0xbe409aa93d112c9dU, 0x3e6725e0bd51d6caU, 0xbdf5e7363d9d3f53U, 0xbd67b033bd4ba56dU,
  0x3e11a742bd9c933cU, 0x3d60101fbd4b3b97U, 0x3d1d13b7be51ae96U, 0x3e6df14ebd3ad1b2U,
  0x3dd4eb063cbb4fd6U, 0x3c62caaf3dde6a41U, 0x3d6e5f8b3e773275U, 0x3d20ba013e22b85cU,
  0xbe9710263e208369U, 0x3d2e67d9bd5be8baU, 0xbdcc71363e577ac6U, 0x3e1f990ebd6e3a0fU,
  0x3d824db63c5dca59U, 0xbe12ffdebe346924U, 0x3c8212f6be4f0248U, 0x3dea2885be1c43f1U,
  0xbe2a2a863e3808c3U, 0xbe3e87aabd416936U, 0xbdb547a43e79587fU, 0xbbcc91c63e3ea453U,
  0xbe35f6a33c874e34U, 0x3e6ead52bdb9836cU, 0xbd7f0ec53e4cb04cU, 0x3a95e0bfbc09a53fU,
  0x3d88f94bbcab8a03U, 0xbe232fd1be725b6bU, 0x3d9faa50be23cd18U, 0x3e269851bd29dac6U,
  0xbd3bd7eb3e0e3a07U, 0xbe2172ddbd4c9802U, 0xbdff2dd93c6b79c7U, 0xbcedacfe3e7bb031U,
  0xbe1cc21bbd4b539eU, 0xbc13b058bd0d2f20U, 0x3e53c5f33d3dbfeaU, 0xbac63578be86f277U,
  0x3d4db896bd8da321U, 0xbe3de218bcce9123U, 0xbd9ce2c5bcd6e564U, 0x3e1f6b573d09eec5U,
  0x3d14efb83e98bd07U, 0xbde10488bdf1c70fU, 0xbd53a1af3e516333U, 0xbe32a54e3e957d55U,
  0xbe51269dbdad95d4U, 0x3e56a55ebdd1c5cfU, 0x3e2d4b893d0c7cefU, 0x3e2c5951bd89df75U,
  0xba7313de3d38c86dU, 0xbe3d7996be4f5dc4U, 0xbd9c3f41be0f12f4U, 0x3e44ec09bd42e892U,
  0x3e16be323d4ce42aU, 0xbd1f97bebe165cd2U, 0xbec85bd03c810f8eU, 0x3deea41b3cab79fdU,
  0xbe512a8ebdd99b88U, 0x3d77e9a13dc38250U, 0xbd9262a13e7a3292U, 0xbdef9414be4a98d2U,
  0xbdf246c33df13907U, 0xbe433a493e13a504U, 0x3e27e229be604297U, 0x3e19887a3e443586U,
  0xbd868b4c3d8f6c4eU, 0x3eb3a7883daf93c5U, 0xbe11b189bdf24795U, 0xbd8f08c8bdccdcddU,
  0xbd20bb6b3e87ad22U, 0x3d978da43d069658U, 0xbe075f123c6e9a93U, 0x3e25c014bdc523a4U,
  0xbe1db46f3def837aU, 0xbbca6c433e2272b7U, 0xbc29084f3df7679bU, 0xbe00e76cbe3425b4U,
  0x3c029116bd7ac328U, 0x3e4d45bbbc2ab55eU, 0xbd139fefbe23c459U, 0x3c0b6f98bd9d646fU,
  0x3d7a0e63be4af97bU, 0x3cbce39e3d8198c9U, 0xbd0d005cbbef2129U, 0x3e8cccd7be279678U,
  0xbe3cf0dc3e817446U, 0x3e5415933d292ef9U, 0xbdac21abbe279376U, 0xbe1881ae3c04cb9bU,
  0x3c8f84b6be527554U, 0x3e1a51143df89c90U, 0x3e0a4cc5be2423dbU, 0x3e3a9495bbd070e3U,
  0xbd67afa0bc6e760fU, 0xbd64acc5bd8d8678U, 0x3d7db4f1bc6c05e7U, 0xbb875772be6dc3d5U,
  0x3e11f790bdfd2995U, 0x3e2d9aaabd97961bU, 0x3d1d55ab3e2d3e4bU, 0xbdb91856be007e8aU,
  0xbe06914e3d5e0205U, 0xbdbd9f423eab75beU, 0x3e26078ebdb52097U, 0x3e5bffb63d85ec15U,
  0xbd9366e63e2f891bU, 0x3d33e6cf3d65bc15U, 0x3e7f7bf13cc3d028U, 0x3db4e329bd092fecU,
  0xbe35bb463ea13935U, 0xbe48af243e52e944U, 0xbe7e1af83e70171fU, 0xbe0477bdbdac3238U,
  0xbeb3fb88bd878b22U, 0x3e2c7e3b3dbce36dU, 0x3dae14c63af6ccd9U, 0x3e4212a93cd9e364U,
  0xbd6468703d6a9758U, 0x3d676edc3ddb61c6U, 0xbdc58d6ebd15465bU, 0x3e20efe0be90d01cU,
  0xbe6edd11bd5d1ee8U, 0x3d8762adbd8adacaU, 0xbdedc58f3d9ab7ebU, 0x3df10a55bdb63184U,
  0xbddbcb9f3db113a6U, 0xbd09a1143e4e7fc3U, 0x3d54e6ec3c3a9854U, 0x3dab24163c8be344U,
  0x3e1ce30d3c1d2ca8U, 0x3d87c6febe0f244eU, 0xbd6c776abc55a8aeU, 0x3e29f7053d09e90dU,
  0x3de2c8adbd1699b7U, 0xbd2b69d23db3d0e6U, 0x3d905a02bd2c7a79U, 0x3d93501abe5a3653U,
  0x3e0b998f3defb9e8U, 0x3d46222bbe283635U, 0xbe0c825ebd3f9258U, 0x3e54c0fe3e44317fU,
  0xbb2e65783e180562U, 0x3e026dd3bd0ee8d0U, 0xbc3fef3c3d13217bU, 0xbd35a668bd8ee864U,
  0x3e10f119be1ff7a8U, 0x3d29d48d3d447353U, 0x3e4c76b1be56b997U, 0x3d4280023d23aae1U,
  0xbdf6da7a3d260a95U, 0xbd9d8411bd86222dU, 0x3e1abba5bc7335d2U, 0xbcf226643d0d33f5U,
  0xbd2a66c0be42be2fU, 0x3d9d4d67bd35133eU, 0xbc87831b3de5136cU, 0xbe0164f93e0d2212U,
  0x3c88225a3d2c78baU, 0xbe7c411d3d565695U, 0xbe35fd14bebafa3aU, 0x3d14ff363e12b75bU,
  0x3dcb9ab13c8971d4U, 0x3da7f4b23d4034a6U, 0xbc60f34f3e55f85eU, 0xbd222c8cbcf5e89aU,
  0x3dd37570be36abceU, 0xbda8e523bd6c2371U, 0x3c8603573c4c3381U, 0xbdb1b3a03c356031U,
  0x3d8bcf9ebda0c127U, 0xbe9f56d0be3b2eecU, 0xbc9ffd3bbe64fcb1U, 0xbde55a843e29a49cU,
  0x3db80e083dabc560U, 0x3c90c3f03e03a0b2U, 0x3c9421ad3e108975U, 0xbe4b749dbc69f645U,
  0x3db128a6be2b5d19U, 0x3d67f47d3e207863U, 0x3e2833363e61948bU, 0xbda0ad773c893ba8U,
  0x3d0e13bcbde52f9dU, 0xbe373234be0cb821U, 0x3d857a93be473fc0U, 0xbdd622a83df7a417U,
  0x3daf37d23d9985bcU, 0x3dc83ca83dcf67e5U, 0x3e2c23143d23c35bU, 0x3cb512d13da80cb8U,
  0xbaff72693c31f8b7U, 0x3dbb4c543dd6f858U, 0x3df7f5c03e5057a1U, 0xbe30aaf8bc81d8b7U,
  0x3e58975c3ad2fae2U, 0xbe6f67acbe3262dbU, 0xbd17b1cdbdfea489U, 0xbd4c98723dc800b0U,
  0xbc88cdeb3d28dd25U, 0x3e155f373dfec516U, 0xbe3d51c93d99fc12U, 0x3e6cd8cebe1cb21bU,
  0xbc62ac18be68542aU, 0xbd392c2c3da46cd8U, 0x3c8088eabd45a938U, 0xbdcfc1b23aa50dcbU,
  0xbc6b2f22bdbd7803U, 0xbdcfbf5e3e5c51c1U, 0x3ceb14763cb7bcb2U, 0x3e3ca7fd3e682286U,
  0x3c0a68313dddd288U, 0x3d4d87da3db86f0bU, 0xbdef2bc1bda991a0U, 0xbc911edd3db2ae1bU,
  0x3e0c86933cc5e20cU, 0x3d90b1b4bcb4ad5aU, 0x3d615f573d428049U, 0xbdbae042be4e69ccU,
  0xbd2b60e43e2ad5abU, 0xbcfc683b3e187dbeU, 0xbe7fba55bdb7c3c7U, 0x3d054312be551955U,
  0xbd7c142b3cb22e48U, 0x3e61d8383dfe6c05U, 0x3da1c466bd2b8336U, 0x3e29f77e3e16755aU,
  0x3d55224a3e548675U, 0xbd9956ec3d611fedU, 0xbe0b6e92bd02a8adU, 0xbcd02db8beb2a6ffU,
  0xbe3c4dce3e619e66U, 0x3db1ac3d3c924f93U, 0xbe3e66b43e0e703dU, 0x3d7ef4e5be220f97U,
  0xbd9d5e553d4a8633U, 0x3d50d7933d953981U, 0xbe3ce58e3bddf30bU, 0x3dcaae473dbf79fcU,
  0x3de65bfd3d95b41cU, 0x3cef22333d855332U, 0x3cfdc90f3dd4cb1eU, 0xbd8cf954bdf49555U,
  0xbe1d85323d9c6b0cU, 0x3da465573d1aa191U, 0xbe43e389bcbf2c3bU, 0xbe062d3ebddea470U,
  0xbe8eb86bbbe9b1ebU, 0x3e7f43883d0b8f35U, 0x3ca0f016bdbf3798U, 0x3e825bc9bd25eddeU,
  0x3d66d7763d2a638bU, 0xbce96a4e3e3aafb4U, 0x3e02fe75bdf7ef97U, 0xbcbb2341be974989U,
  0xbc9ecd993e5c2bcdU, 0xbccbbead3dba4e41U, 0xbcc8ede33bf5b519U, 0xbdc4c237bd2eb4a5U,
  0xbe9fe0a8bc1a0167U, 0x3dff86773e5fd1a3U, 0x3cbdcb6b3ca49456U, 0x399e1a7e3e292498U,
  0xbd801d7bbd958561U, 0xbc5927c93dc12829U, 0x3dad6840bb53883eU, 0xbd8a71aebe3854ecU,
  0xbe1b91883e1b68c2U, 0x3d60fdf93e01de62U, 0xbd7164893cb48068U, 0xbde315c1bd8b47edU,
  0x3df35adbbd9cea50U, 0xbd9b284f3d10d404U, 0x3e57a2063d8c4d31U, 0xbda758ee3e084640U,
  0xbcac6ae3bc22bea7U, 0xbd252db7bd17025fU, 0x3e0b705dbc41c963U, 0xbd1ad9debe09044fU,
  0x3dc382013d69ffb0U, 0x3d761d04be76ba40U, 0xbe21e2a9bd5721e1U, 0x3d5747053a8cedbeU,
  0x3d4efbff3dff2ef4U, 0x3decec69bc2e6c9fU, 0xbd0e3351bddb9815U, 0x3c15b0a33c9478b5U,
  0x3e2d6a34bbe56d02U, 0xbcb9698f3de1f1ffU, 0xbe09e365bc86c230U, 0x3e05d3d43d3e150bU,
  0x3dd068123d2dcd7cU, 0x3d94c530be19586bU, 0x3dc4a8debe233e6aU, 0xbdb4e0b4bdb19c8eU,
  0x3da53811bb0e1117U, 0x3e1176f1bc8b0febU, 0x3cd38ee7be2a259dU, 0x3d87779dbdd9bb64U,
  0xbe2f5f38bcca2f4fU, 0x3c01e9d9bdeb6663U, 0xbd9ba0073d1a41aeU, 0x3d0f6c1a3df4f06bU,
  0xbdfbde5e3ea28a7bU, 0x3a9597af3c1ff332U, 0x3dcf3ce03e61ec2dU, 0x3b2043d5bda1b82dU,
  0x3e3370163c224b4eU, 0x3dc1e35cba2c8c10U, 0xbc8c81213ca8ad34U, 0xbd044c42bdbe32bbU,
  0x3e2299e43d8f888aU, 0xbd61602fbd9abc06U, 0xbd9a2defbdde0172U, 0xbd9d2a993d67fe7cU,
  0xbdc730ac3eaec7feU, 0x3dd7d3963eada04bU, 0x3e406a5d3dfe20e5U, 0x3c920fd3bc445b1aU,
  0x3e3ef63dbdf4f9e3U, 0x3e51e1f4be0b1f90U, 0xbe24f7e3bdfece8bU, 0x3e38e15fbe26facaU,
  0xbd9efb783e41f64fU, 0xbd49a2f43d39d0d7U, 0x3e2a3a0f3e15e1e6U, 0x3e397d9b3e04f2fbU,
  0x3e07ed843e795e87U, 0x3e500eb93dc480e1U, 0xbc3368f7be94d1d9U, 0xbce52822bd8c2ea3U,
  0x3d0d7c5d3de9fa52U, 0x3d86779cbdfb4e62U, 0x3d898271bdac2031U, 0x3dd4f30c3d25e335U,
  0xbe0d937fbd0f3cd7U, 0x3dc63e12bd9439e5U, 0x3db3ce3d3d33e216U, 0x3e0da7383e23c22aU,
  0x3e360f0c3da69b41U, 0x3ead10ea3e01c57bU, 0x3dd2be6bbdcc1c34U, 0x3dd26ebfbd310634U,
  0x3e248f00bda95234U, 0xbb0b60cdbd9f1e12U, 0x3d0559d13e80e6b1U, 0xbdc3e6363e0de251U,
  0x3df1d67cbe1fe324U, 0xbe00f9fdbc65a1f3U, 0xbdc07449be7b811dU, 0xbde012f23b7ed9b0U,
  0x3e95d82bbd1b7148U, 0x3e4c8131be0a5487U, 0x3d003b033dc0e57bU, 0xbd161066bd13f1d3U,
  0xbe142531bd9dbcc9U, 0x3e138c36bb55980dU, 0xbcdc0652bd1b0f2aU, 0xbc01416e3e5741d6U,
  0xbcc018ec3e1c129fU, 0x3e2c8952baff9bdcU, 0x3d0e1273bde03d73U, 0x3eb80e50be82e2b7U,
  0xbbfe9727be8c9794U, 0x3e9a38e23e858387U, 0xbeb63836bc010187U, 0x3f03eb7fbf0e8907U,
  0xbf03a400bf2a7caaU, 0xbec333253dbc9468U, 0xbeb768dc3f1c62b4U, 0xbd876182be4fa3c4U,
  0x3d876185U,
};


ai_handle g_network_weights_table[1 + 2] = {
  AI_HANDLE_PTR(AI_MAGIC_MARKER),
  AI_HANDLE_PTR(s_network_weights_array_u64),
  AI_HANDLE_PTR(AI_MAGIC_MARKER),
};

